/**
  ******************************************************************************
  * @file    storm_data_params.c
  * @author  AST Embedded Analytics Research Platform
  * @date    2025-07-16T18:38:15+0800
  * @brief   AI Tool Automatic Code Generator for Embedded NN computing
  ******************************************************************************
  * Copyright (c) 2025 STMicroelectronics.
  * All rights reserved.
  *
  * This software is licensed under terms that can be found in the LICENSE file
  * in the root directory of this software component.
  * If no LICENSE file comes with this software, it is provided AS-IS.
  ******************************************************************************
  */

#include "storm_data_params.h"


/**  Activations Section  ****************************************************/
ai_handle g_storm_activations_table[1 + 2] = {
  AI_HANDLE_PTR(AI_MAGIC_MARKER),
  AI_HANDLE_PTR(NULL),
  AI_HANDLE_PTR(AI_MAGIC_MARKER),
};




/**  Weights Section  ********************************************************/
AI_ALIGNED(32)
const ai_u64 s_storm_weights_array_u64[2317] = {
  0xbf095f26bd8aed3fU, 0xbe8270743dbf3bdeU, 0xbec77d7abf0567cbU, 0xbe51f88fbefefe03U,
  0xbd829d0fbeb2285eU, 0xbebe1888bf1a15b0U, 0xbdf851b9be9e4953U, 0xbed2fe10be9eae02U,
  0xbe20a0f9beabc899U, 0xbe8c93a7bec4f8ceU, 0xbec1b2a3bd6c9398U, 0x3bc2c135befe83e2U,
  0xbeddd282bf15f4edU, 0x3ecff6cabf034890U, 0x3d9b11243db3d8a9U, 0x3e08b7643e4165caU,
  0x3df9167c3d8afed1U, 0xbe232a103eaffc21U, 0x3ddb630b3ea2688cU, 0x3e4aedd13ea68deeU,
  0x3e86b4c13ec75793U, 0xbe58d6483e7bb041U, 0x3e5c5cc03cab75cfU, 0x3e1a02483c51ad74U,
  0xbd52c60cbd9cf8deU, 0x3cb124aabe2395a9U, 0x3e8fd8523eb41ea0U, 0x3e089d713e5624e2U,
  0x3b9de89e3e5be5ecU, 0x3da7b702bd817db9U, 0xbdf7de0ebe71eb54U, 0xbd6eed0bbea6c43eU,
  0xbcce0675bdae0ec3U, 0x3ce8a6933de9434bU, 0xbe2378e3bdfc91f9U, 0x3d438f69be3a39b0U,
  0xbc1daf713d463817U, 0x3e13e703bdf440f7U, 0x3ea9ed723ebbe492U, 0xbc1ab0a73d10cd15U,
  0x3ea133bf3e582fc7U, 0xbc7dfa073e4b92b4U, 0x3e80a2433e80217bU, 0xbc8765c33e0ee47cU,
  0x3e2462823eb2fd1eU, 0xbdb82d363e858678U, 0x3ea312453e80dad5U, 0x3e02c5d43e6a3c6cU,
  0x3ec2a48f3e8771ceU, 0xbd7b4b593ec8f658U, 0x3ec284083eb793f9U, 0xbc215b8b3ea53e25U,
  0x3e1cffb23ec71f28U, 0xbd3fef8f3da3be30U, 0x3ee4672e3dc800c3U, 0x3ca4ac9d3eacf54aU,
  0x3c62dad4bdada4deU, 0x3e556d313da9600cU, 0x3e26c5383d449976U, 0x3e3666ecbc472b62U,
  0xbdd7f8a43e3b58e4U, 0x3dad8162bda7c031U, 0xbe4729d23de6013fU, 0x3e0b2edabd93dbf5U,
  0xbe074b87bd296c18U, 0xbcd09f21bd8a38d4U, 0xbe0b00813db277b3U, 0x3e11f31abdaea075U,
  0xbe3cf41f3cc3d184U, 0x3e38f8eb3d5df7c7U, 0x3de0ad933c7022b4U, 0x3dab64ad3d010111U,
  0xbaeda7b4be20943fU, 0xbd11a9333d1faef4U, 0x3e87d0543d52fe83U, 0x3e06b3863e08e9ceU,
  0x3e9edd483e952e9cU, 0xbdb157733e9afdfbU, 0x3eb44ae93ea04a7fU, 0x3d8d20d73ec4a995U,
  0x3ea70e043ea805edU, 0x3d3932c03ea7826aU, 0x3e74008d3e921b32U, 0xbd70a7e43df284a9U,
  0x3ec2d9b73e53061fU, 0xbde60c493e3bca35U, 0x3e42d60c3ec7a3eeU, 0x3e10a3b93e16a106U,
  0x3ebcdde13e5f8605U, 0xbe049d983ea26f11U, 0x3eac3aca3ec78623U, 0xbe20e7793ec93c0cU,
  0xbe00152ebdb535f4U, 0x3c9f397f3c8c1b83U, 0x3cb1f423bd23e2f6U, 0x3df47e2bbe08241aU,
  0x3c26ffc53e498a9fU, 0xbe199e323ca453ebU, 0xbe92633cbde42174U, 0xbe1e4ac23e24ca5cU,
  0xbdabc9adbc02946dU, 0xbdaa2870bd890472U, 0xbcfefd163e98ed06U, 0x3d2618833e74dbeeU,
  0xbdcbdc05bd7b1dacU, 0xbd1026acbe405a46U, 0xbd72a2c73e211affU, 0xbd52dd3f3e0e9320U,
  0x3e0a542c3ea1c1e2U, 0x3e2af97a3da43a84U, 0x3ec1852d3e856a6bU, 0x3d9662d33ecd3cc7U,
  0x3ecccbeb3ed273c0U, 0xbdc241ac3df80040U, 0x3e12e85f3e52d9d5U, 0xbdf53cc93e9dd5a9U,
  0x3e84a69f3ecafb47U, 0xbd013eaa3e7a72b8U, 0x3ecbb0103ea6d199U, 0xbc96a9983ecf92b0U,
  0x3eaebe613ed26a06U, 0x3d3f3cd93e0d2e42U, 0x3ea00dc43de89687U, 0xbdf5e2683eb20323U,
  0x3e83b6e73e2a3503U, 0x3dad4c133e328f19U, 0x3eda0dc03e9d44b7U, 0x3cc815573d7bf303U,
  0x3d34b172bd999550U, 0x3d95123dbcf8c7a0U, 0x3d84ee8a3e327049U, 0x3ce1bdd93db5a85aU,
  0xbd637a7238893e76U, 0xbd221923be0c22a3U, 0x3dce01d8bb9818a1U, 0xba1d2dc03d8aa5b8U,
  0x3cd011f8bdaa2c58U, 0x3cfc8e7dbe4e9262U, 0xbbe5bfb2be1643e4U, 0x3d0764063d8bee69U,
  0xbd9e9cf23d5a4af7U, 0xbe29850b3e5bab3eU, 0xbdae76f33e36352eU, 0xbcebfdca3e20a82fU,
  0xbe2eb80cbdbb0f6cU, 0xbdde5283be4d77ffU, 0xbdac728bbd312c10U, 0x3d61dd64bda66286U,
  0xbc970378be27bbf6U, 0x3d1c0c51bdead6fbU, 0xbd8ee323be1f1190U, 0xbe003d5ebda39676U,
  0x3de112a6bdfb6970U, 0xbc8f8c49bd67f900U, 0xbd2b4606bdad9616U, 0xbe2cdac4be1d08c2U,
  0x3e11861bbd93a790U, 0x3d8e37e1bd02f720U, 0xbe146fd7bdb6e821U, 0xbdc7184a3e1b6103U,
  0x3e11f3e1bdec29f8U, 0x3df5562dbe1ce629U, 0xbe14401bbe0d174cU, 0x3dc546043dd34b26U,
  0x3dd95facbdb1dd40U, 0x3e2755093e2f81cbU, 0x3e2bcd7b3e248e02U, 0xbe13d4f63e5e0830U,
  0xbe3717dfbe604782U, 0xbdddc915be108829U, 0xbd3d5ac5bd9da1afU, 0x39b138d6bc8b850cU,
  0x3d4bce8a3c86a798U, 0x3dea0b9a3daac36dU, 0x3e37746e3e14fabfU, 0x3e90f7773e59f645U,
  0x6667786888867768U, 0x6777778677767877U, 0x7887676678666666U, 0x6878866786788877U,
  0x6668777876778787U, 0x6788886787887777U, 0x7776867686876687U, 0x6688778688867767U,
  0x6867878766688778U, 0x6687767787868777U, 0x7886777866766778U, 0x7686667786787776U,
  0x6768667666778778U, 0x6878778776767778U, 0x8667787886877686U, 0x6776668667688888U,
  0x8777768688677776U, 0x6676777667667667U, 0x6866886887788867U, 0x6666678787667766U,
  0x6786767676668777U, 0x7867666866776688U, 0x6677768688767766U, 0x8877877777787678U,
  0x8767687668686666U, 0x7766867766877767U, 0x7886668667777787U, 0x6666678676776867U,
  0x8686877786766788U, 0x6767667876666676U, 0x7666766867866678U, 0x7687668776767866U,
  0x7878667777768786U, 0x6766677887668768U, 0x6876688878766676U, 0x6866676676687868U,
  0x7686778768867776U, 0x8866766776877777U, 0x7666666677666686U, 0x7687766676668676U,
  0x8686766676676776U, 0x6686766777666676U, 0x6878787687768667U, 0x7768887887666878U,
  0x6667768867866868U, 0x8768676766876676U, 0x6787686666677666U, 0x7767788776668876U,
  0x6867667776776676U, 0x7688876666687666U, 0x6676678676667878U, 0x8766767767687677U,
  0x6778666687776767U, 0x6768766686776676U, 0x6778667876676666U, 0x8686668767886768U,
  0x8777767677668677U, 0x6767786687876666U, 0x6677886786678778U, 0x6766867887677667U,
  0x8877686786776676U, 0x7778767667667776U, 0x6778667876788687U, 0x7676666788776677U,
  0x8677666687766678U, 0x6787678667778678U, 0x8767677866667777U, 0x7866667788677767U,
  0x7766677687666777U, 0x8766676766776666U, 0x6767767766766776U, 0x6766667888887668U,
  0x6866667776667677U, 0x6767876676777786U, 0x7677678677867766U, 0x6866667667677766U,
  0x6776776766677768U, 0x7776676677678778U, 0x6867666667766787U, 0x6766677767767678U,
  0x8777666876776767U, 0x6786666876667676U, 0x7676776768666766U, 0x6678676766676766U,
  0x7768767666776777U, 0x7887776767686686U, 0x8676776688667666U, 0x6776776776867666U,
  0x6776766666877688U, 0x8766786668676867U, 0x7666666887866867U, 0x8687766677787777U,
  0x6688786666777668U, 0x6766767767686668U, 0x6687867767766677U, 0x7666866768687677U,
  0x7777686677877776U, 0x7776786666667678U, 0x6667887767887668U, 0x8876767667768667U,
  0x7766778667676667U, 0x8877676776668668U, 0x7667686866777776U, 0x8676788676776767U,
  0x7678866766776766U, 0x7776666666776887U, 0x7787666677786678U, 0x6667778777866667U,
  0x7767676776686666U, 0x8776787776666887U, 0x6788767787766877U, 0x6776677776668676U,
  0x8887676888667667U, 0x6677866767876777U, 0x8888876886688768U, 0x8668677778786766U,
  0x7768668868776886U, 0x7778687666866778U, 0x7686868868767877U, 0x8787678776866676U,
  0x7678878687668768U, 0x6686776866877786U, 0x7886786676688877U, 0x6778666777777777U,
  0x7876666667886787U, 0x7768666677676786U, 0x6766877767687666U, 0x6877678778886788U,
  0x6887778678686666U, 0x7686878686888667U, 0x6688787887776677U, 0x7678678686776667U,
  0x7767677788876867U, 0x7787667786767886U, 0x6687788688787667U, 0x7766866776777778U,
  0x6666768777666688U, 0x7876688676766788U, 0x8676667776778776U, 0x6686788866866777U,
  0x6767786667778776U, 0x8686776777686787U, 0x8878776786886766U, 0x7666668887667666U,
  0x7876666786767777U, 0x6667787776677766U, 0x6676666777686768U, 0x6667777776766777U,
  0x7667687667766677U, 0x6678676766866667U, 0x7776777667686876U, 0x8677676686687766U,
  0x8768687666666667U, 0x7676867686787866U, 0x6766676668876766U, 0x6766677667867666U,
  0x6677678768777786U, 0x7767676776787876U, 0x6866878768667677U, 0x6676677776687876U,
  0x7678777766768666U, 0x6767668888767868U, 0x8788677776678668U, 0x6866666788677868U,
  0x6768766667668767U, 0x7666667668688768U, 0x7666666878767677U, 0x7787667787866667U,
  0x7768877886686777U, 0x8786777667666778U, 0x6676668676877787U, 0x6666766666686677U,
  0x7667676667676788U, 0x6667768766788867U, 0x6777678876676878U, 0x6676686676678666U,
  0x7768777776867767U, 0x7766866776677676U, 0x6667686768766676U, 0x6767666667778676U,
  0x6667786766666677U, 0x7688677767676666U, 0x6666867876676666U, 0x7666676667766667U,
  0x8767666867676867U, 0x6677767687776878U, 0x7778666767877677U, 0x6666668666786677U,
  0x6667677767668886U, 0x6887686777877766U, 0x6766788666878666U, 0x7867666866766876U,
  0x8668677677677867U, 0x6676766887766687U, 0x7776677766667768U, 0x7786777676687777U,
  0x7678787777886688U, 0x6766768668867676U, 0x7778677877666676U, 0x8767676668767768U,
  0x7767667877766888U, 0x7776667666677666U, 0x8676666888766678U, 0x6787777777677877U,
  0x7766876667676666U, 0x8666687676667778U, 0x8687766666776667U, 0x6667686867668777U,
  0x6677666676767676U, 0x6688677767676668U, 0x6778776866686787U, 0x6876778886776766U,
  0x8688667886686687U, 0x6786776677887667U, 0x8777777767666866U, 0x7687666867777687U,
  0x6776888776887877U, 0x7776666687667776U, 0x7766666878676686U, 0x7686667886766778U,
  0x6676867677676867U, 0x8686777776766767U, 0x8688678877677667U, 0x6676768768676677U,
  0x7767676777766668U, 0x8668667886876767U, 0x7776787678666676U, 0x6668667888876876U,
  0x8678788877778866U, 0x7866688767876777U, 0x6666888766776766U, 0x8876888666777767U,
  0x7787778686876666U, 0x7668778886866668U, 0x7687776686766677U, 0x8877876887676766U,
  0x7887677878868686U, 0x6667786888866876U, 0x6687767777676876U, 0x8666678686666767U,
  0x6768666767877777U, 0x7687766887768766U, 0x7667686766887787U, 0x8668877768776767U,
  0x6778688687777777U, 0x7678678768686886U, 0x8876868788878667U, 0x7777788768887876U,
  0x6686687788868867U, 0x8687667687877788U, 0x7877866687767777U, 0x7678778867687776U,
  0x8777776667668766U, 0x8866678767888867U, 0x6777777776687676U, 0x8778768877768677U,
  0x6678678766768888U, 0x8778767778776676U, 0x6677877677666676U, 0x6766788886788768U,
  0x8686778767887887U, 0x8687787878778788U, 0x8687776787786878U, 0x7877888667868886U,
  0x7687666887678778U, 0x7868877878777767U, 0x8777777886886876U, 0x6676786886878778U,
  0x8878777788668776U, 0x8868777877886677U, 0x8677678777868868U, 0x8667867688867676U,
  0x8876688877788667U, 0x7868677667667766U, 0x8676887888668776U, 0x6777778786866676U,
  0x6787676767868666U, 0x6886667767867678U, 0x6768677878768666U, 0x7767678686787786U,
  0x6767677767777766U, 0x7868878768787887U, 0x6666877786868668U, 0x7878778668667787U,
  0x6878787778778866U, 0x8776778786688768U, 0x8786766787776876U, 0x7866877778678776U,
  0x7678687667866778U, 0x7877876776767878U, 0x6888668786686866U, 0x6778877887767877U,
  0x7678688676678886U, 0x8866877677768776U, 0x6666886868876667U, 0x8786778877668768U,
  0x6867668777867667U, 0x7787668778876667U, 0x7888868768776687U, 0x6668787768887777U,
  0x7668868776677677U, 0x6688866867688688U, 0x6678666666666767U, 0x6888868777867668U,
  0x6866878878877687U, 0x6667767868688876U, 0x8866688878676778U, 0x7766668876677676U,
  0x8776877867768666U, 0x7876777677667878U, 0x8788878678677868U, 0x8787878676786877U,
  0x7766787777777676U, 0x6877766668667676U, 0x6867877767877867U, 0x6766776787777866U,
  0x8677766867767767U, 0x7776677767786786U, 0x6867866668768886U, 0x7677777778868787U,
  0x6667887677776766U, 0x7778688768667687U, 0x6667766778777868U, 0x8876877777776688U,
  0x6686776877886678U, 0x7877777777886778U, 0x6868786687688887U, 0x6778886678676877U,
  0x6686667777668878U, 0x8668767787768676U, 0x6768876666887786U, 0x8867788877766876U,
  0x7887687778767867U, 0x8767777878886766U, 0x8866676887766878U, 0x7876768777876877U,
  0x6877687766666766U, 0x6788887666887787U, 0x7687687877886787U, 0x6886888687767787U,
  0x8868666786687767U, 0x7778786786768786U, 0x6678777686866778U, 0x7878868767786687U,
  0x7787888676778778U, 0x7678777787767887U, 0x7778866687786776U, 0x7766687688867776U,
  0x8776678667688878U, 0x6777676787887676U, 0x6676777866677777U, 0x6867676676887667U,
  0x6787768778878788U, 0x8666667868766676U, 0x6886788777787677U, 0x8666766767766787U,
  0x6688687788788767U, 0x7767677766866667U, 0x7888787776787768U, 0x8687677767678678U,
  0x7768687886776666U, 0x6777888887667778U, 0x6768676868876768U, 0x8868767768668766U,
  0x7877778786868887U, 0x7667867768888787U, 0x8776777787867768U, 0x6667868676767787U,
  0x8887777666787768U, 0x6777786767666678U, 0x8787868686687786U, 0x7776666678867868U,
  0x6668776688868666U, 0x7887687866676766U, 0x7677787687766676U, 0x6777878666878878U,
  0x6688776887786788U, 0x8687888867878666U, 0x7888777668688886U, 0x6767667677776686U,
  0x6677868767688677U, 0x7868668777767787U, 0x8786687776687787U, 0x8787677786886868U,
  0x8688677688878668U, 0x7688776678667688U, 0x7868687676666787U, 0x6687677687876766U,
  0x6768867777766677U, 0x8666876878868766U, 0x6788688666778676U, 0x6878666767877787U,
  0x6778776868687687U, 0x7688878676677777U, 0x7878766887876787U, 0x8676677866787878U,
  0x8668866776866677U, 0x6678678666878778U, 0x8677777877778676U, 0x6786877886778768U,
  0x7878886866786666U, 0x8777666768778676U, 0x8866666787766676U, 0x6666687667667687U,
  0x7776877688878887U, 0x7878888777767666U, 0x6886686766667876U, 0x6686786786778676U,
  0x6768877866767767U, 0x7686667667666668U, 0x8776767786877887U, 0x6688677766668668U,
  0x6787786686877886U, 0x7687886778767777U, 0x8876876788787766U, 0x7678777687787777U,
  0x6676666887878768U, 0x7668886886877777U, 0x6877686766878677U, 0x7787667867878877U,
  0x8887677867887778U, 0x7686688676886888U, 0x8667667866766688U, 0x8868887666667686U,
  0x7676688867687878U, 0x8687777778686666U, 0x6666877786777668U, 0x8778677777777867U,
  0x8677667777777667U, 0x7887866668867666U, 0x8868788877666776U, 0x7778767877788886U,
  0x6776666666667768U, 0x6777767776666776U, 0x7787668768687878U, 0x6767876667688867U,
  0x6688667778776677U, 0x6668766888778766U, 0x7788868788786866U, 0x7786777767876677U,
  0x6868787867688677U, 0x8778887766878887U, 0x8776888678787666U, 0x6877677777887668U,
  0x6786677877767677U, 0x7788778878886677U, 0x7678768677878678U, 0x6786887766768777U,
  0x6777776687668687U, 0x8886778868886667U, 0x8767667888876677U, 0x7676878766668868U,
  0x7786776787686866U, 0x7878768668668787U, 0x8766768676668688U, 0x7787776667686788U,
  0x6766868868768878U, 0x7676788788677868U, 0x6677776778767676U, 0x8867787768878786U,
  0x6787876677678767U, 0x8868676886787866U, 0x7867668877786766U, 0x8868866868777778U,
  0x8776678678887877U, 0x7866776766777687U, 0x6766866667876667U, 0x7667777876786776U,
  0x6776876667677777U, 0x6777767767766776U, 0x6867766877767676U, 0x6867788666778876U,
  0x8687787876677778U, 0x6778668867768787U, 0x7888686887677877U, 0x7678687766687766U,
  0x7688876778676686U, 0x6877678686678666U, 0x7787767887788886U, 0x6688777776677777U,
  0x7768777688788876U, 0x7766677767878876U, 0x8666687766668667U, 0x8868687677776788U,
  0x8886868666886788U, 0x8877686777687767U, 0x8886786678888688U, 0x8668677878787888U,
  0x6768688686867668U, 0x7778677687676668U, 0x6788788668676777U, 0x7688766676768787U,
  0x8867886766777767U, 0x7876688778876767U, 0x7767777676786766U, 0x6787778878778867U,
  0x6777678787878888U, 0x7767888767788676U, 0x7876777668668866U, 0x6777877686677788U,
  0x7777788777787767U, 0x6776867688688767U, 0x6788666777677787U, 0x7876767788777678U,
  0x6886678787686667U, 0x6777786767676887U, 0x8778686888668888U, 0x7668876878768888U,
  0x7886666786676788U, 0x7778768788877876U, 0x8776866777688668U, 0x8768777767678667U,
  0x7878778686676687U, 0x8887677666886876U, 0x7866687677666786U, 0x7768686867886876U,
  0x7878776888686778U, 0x6676678888777877U, 0x7766787877868787U, 0x8666777887767886U,
  0x7887786878886878U, 0x6676767786887667U, 0x7688786766868886U, 0x6786876668767686U,
  0x6777788766778677U, 0x7787876887776778U, 0x6886787877776868U, 0x7678786888866688U,
  0x6776768788886676U, 0x7677786668777778U, 0x7676687766887676U, 0x8666686768676686U,
  0x7676778768678867U, 0x8666777687676677U, 0x6678767777666668U, 0x7776886786678678U,
  0x8668677766678788U, 0x6867666866678786U, 0x7776767876876868U, 0x6888877767877776U,
  0x8778778668787766U, 0x7676788868776686U, 0x8766868667667776U, 0x7766768668766766U,
  0x8677667678766676U, 0x6668887666767667U, 0x6778776866688677U, 0x6776676667687667U,
  0x8768767776767666U, 0x8788667678787676U, 0x6766677766877667U, 0x7678888867768866U,
  0x8878866778777777U, 0x7866876776667666U, 0x6777788766677787U, 0x6667666778667666U,
  0x6667767666867867U, 0x6776666777786687U, 0x6786876666877787U, 0x8678766767787766U,
  0x8767878688668776U, 0x6668788777777767U, 0x8877768776687768U, 0x6876666766876776U,
  0x6768767786866777U, 0x8667866876687866U, 0x6766687778766667U, 0x8667687766786666U,
  0x8666668787867767U, 0x7768877776666766U, 0x6778788776667867U, 0x7767668866677677U,
  0x6666678667667866U, 0x6867888676676787U, 0x6776667666676767U, 0x7786776677766676U,
  0x6868876686866667U, 0x8887788867866686U, 0x7686677767768766U, 0x6766768776687677U,
  0x6876666677768767U, 0x6667787668668787U, 0x7688666877778768U, 0x6776686777867766U,
  0x6667776677667668U, 0x7668668867677777U, 0x7776667877876686U, 0x6666776668678667U,
  0x7866766777786678U, 0x8767786676676778U, 0x7766867676776776U, 0x6676676767668778U,
  0x7677887677667777U, 0x6766766667666677U, 0x8666878666677686U, 0x8688676876777686U,
  0x7868666887666676U, 0x7887887667667687U, 0x7768676766867776U, 0x7867688776686786U,
  0x7667686686677668U, 0x8666766688676677U, 0x6776877666876666U, 0x7768767867778667U,
  0x7787877666676668U, 0x6767687778667777U, 0x7777678767777667U, 0x7776767668677786U,
  0x7766666666767767U, 0x6767878777777777U, 0x8787766666766667U, 0x8788786677776766U,
  0x6778688888778666U, 0x7687686678668676U, 0x7677788887667666U, 0x7676888666687767U,
  0x8768786776778876U, 0x8766776886888776U, 0x7786686666667676U, 0x7776667676766667U,
  0x6666776687776666U, 0x7767666777768768U, 0x7786667788667688U, 0x8888677766766767U,
  0x6867886787666877U, 0x7686877876786666U, 0x6786688876776687U, 0x6788778677886787U,
  0x6876778687767777U, 0x7868767887767866U, 0x8687786788868667U, 0x6787677777866886U,
  0x7777777877687678U, 0x6788677876777787U, 0x7888687687687877U, 0x7678677767678678U,
  0x7766766778688786U, 0x8677877867778888U, 0x7887886776788776U, 0x6887886687767766U,
  0x9797698669799978U, 0xb5a8c9665bc89999U, 0xa347b95586b6a999U, 0xa5466495ba94986aU,
  0xa895a999ab978867U, 0x8a987c469a859635U, 0x39cbdd6a45768547U, 0x3ad8edad6aa8a949U,
  0x58c5bbbdbb97a92aU, 0x27b4989886859599U, 0x4aa49aa85745a578U, 0x9956888846549488U,
  0x3898896945966666U, 0x7975888a57977a38U, 0x8865a88657786959U, 0x8589995625713055U,
  0x446567767666999aU, 0x4486986876769898U, 0x4199878986799998U, 0x31767799aa995688U,
  0x6466789998785655U, 0x6695995963677655U, 0x7695aaba9999ba58U, 0x5597aacbbaaadc6aU,
  0x5595babbababbabcU, 0x4694abccbbabbbaaU, 0x68a6cbbbcbbbbb9aU, 0x66b7dcbcabbaba88U,
  0x88cadcddacab8a87U, 0x99babbccbcaa8968U, 0x5686999a89655886U, 0x7687879999668899U,
  0x6599795544644533U, 0xbbaa8a8666683632U, 0x9a88696565778735U, 0x8989897776778846U,
  0x8898888878878787U, 0x8798977867878798U, 0x9888667666668698U, 0x8667666455687675U,
  0x8878554455667555U, 0x7867565455878644U, 0x6656445555567646U, 0x6666545545556644U,
  0x5744445354656556U, 0x5555555466365463U, 0x6876565556577845U, 0x8666564434883410U,
  0x5565666686769899U, 0x437677697566a899U, 0x3276876a96689898U, 0x44555788a9796888U,
  0x4455688877786865U, 0x6695a96a54698655U, 0x66859aaa888aa958U, 0x5585a9aa9a8aa88aU,
  0x547699aaaa8a97bcU, 0x5775a9bbaaaba99bU, 0x6896a9abaaaa9a99U, 0x66a6caaba999aa99U,
  0x96b9cbbbaa9a8a88U, 0x98aaabab999a7967U, 0x6686879988565888U, 0x7686978988558898U,
  0x8776664685677696U, 0x5a85599565588673U, 0x5764345558588574U, 0x5533455487687567U,
  0x7535758575686467U, 0x6566978854456468U, 0x956498ab8b666578U, 0x6254a89a9a698797U,
  0x535489999a7966b3U, 0x6455988999787898U, 0x9487a89a9a789686U, 0x8596b9ab9a998678U,
  0x9698bbcbaca99a69U, 0x7868a8ab8a889967U, 0x5677867876497865U, 0x68886677963a6796U,
  0x556566757676989aU, 0x448587578667a999U, 0x4188877996689999U, 0x41666698b98a4789U,
  0x5365889998785755U, 0x5497885744567646U, 0x58979a999789ba46U, 0x6786aabbaa9acb59U,
  0x4495aabbcb9ab99cU, 0x5695aabbcb9abaabU, 0x67a6cacbbbabbb9aU, 0x65a9cbccaabaaa89U,
  0x88baddcdbdbc9b87U, 0x99cbbbddac9a7977U, 0x6588a9aa99955888U, 0x7778978999667888U,
  0xa588a95759867858U, 0xb56999365c867858U, 0x8556453575345457U, 0x6475555667544358U,
  0x7655373474455556U, 0x36886856a8555556U, 0x48879999a9779946U, 0x4597989a96777529U,
  0x46a699aa9866765aU, 0x46b89a8896786668U, 0x5699baab9a897659U, 0x77abba99aa9a8656U,
  0x88a7a8a9999a6856U, 0x7876888988975556U, 0x8678888768535768U, 0x8767675545b28344U,
  0x6667686677678788U, 0x7686668787668868U, 0x8676876776686678U, 0x8867667678868788U,
  0x6876868777787668U, 0x6777687768788787U, 0x6668688677866786U, 0x7888886766777888U,
  0x7667667867677876U, 0x7667677687877768U, 0x7677886767788877U, 0x6887776776868878U,
  0x8668788666676677U, 0x7766866688776787U, 0x6777876878766876U, 0x6868667766677886U,
  0x993433a90a96ab87U, 0xc69b64872ac79998U, 0x66a9558849969a48U, 0x53a9acbb4589c467U,
  0x345a99c85865b578U, 0x856ba9ca45569588U, 0x953567bb8977a598U, 0xc773848844557667U,
  0xb464544234559464U, 0xa67843555864a635U, 0x5b6458757a35a745U, 0xca355698bc867928U,
  0x6944353486647648U, 0x7932265567d45c48U, 0x571154978aba9ba7U, 0x865ab8cc3d25a969U,
  0x879968759796a899U, 0x768879758898a99aU, 0x666567858899aa99U, 0x5597a9aabb99ca9aU,
  0x98b9aacabc9baaaaU, 0x98ba9acaccabb99aU, 0x879a89a8aba9a998U, 0x989a88776787a888U,
  0xa8ab995767769566U, 0xaaba9a6775568467U, 0xa9aa996777557566U, 0x999a874663455576U,
  0x8886664454a56a67U, 0x6766544344b69a77U, 0x665665a89b885889U, 0x868798baab895557U,
  0x9a89999a99a8aa9aU, 0xbb9aaa7a987987bbU, 0xa99a9898889889a8U, 0x8868888788998998U,
  0x8877866778888888U, 0x7877767888887868U, 0x8886867887989988U, 0x7867677868787998U,
  0x87767677769889a9U, 0x87676777678799c9U, 0x87888889899977baU, 0x888899999a8989a9U,
  0x9898999999998996U, 0x88998898998985a6U, 0x99999889999998a8U, 0x9b78996656a7bbbaU,
  0x978878748877a899U, 0x878768658988a989U, 0x566557759898aa9aU, 0x669699a9bb99b99aU,
  0x98b9abcbabaab89aU, 0xa7aba9b9ccab989bU, 0x868a98a89b99878aU, 0x979a999868886678U,
  0x979a997868886657U, 0x99bb9a6956575566U, 0xa9ba995876556556U, 0x989a885554656576U,
  0x8886764454a49b76U, 0x8755554354b5aa78U, 0x77776598aa896987U, 0x867888b9ac896666U,
  0x9488aa5997846799U, 0x6867b969a6644789U, 0xab88a9989b96798bU, 0x9a99b9baba79899aU,
  0x9bbab9ba9b8a89a8U, 0x96cab9babb7a8898U, 0x9aaaa9aabb799898U, 0x9aabab9a8968696aU,
  0x77abaaba9989798cU, 0x98baaa9999796779U, 0x96a998998898897aU, 0x9687756775779879U,
  0x988868444395ba88U, 0x8967665555a6ab86U, 0x88886876b9b99988U, 0x88988798daa97a44U,
  0x98796985998799a9U, 0x7697587688989a99U, 0x5575579588a8aa9aU, 0x55979aba9baaba99U,
  0x96a8babbacaac99bU, 0x98bbaac9bdabb9aaU, 0x989998a9bb99aa89U, 0xa8ab88986998a988U,
  0xa7aa996767869667U, 0xa9bb9a7977559556U, 0xa9ba9a6875567457U, 0x999a884764545576U,
  0x8887763544b56a67U, 0x8856454353b59b67U, 0x556654978a986988U, 0x778987aaac896556U,
  0x979899984baa8767U, 0xb7aa6a7a4c9a8676U, 0xa6babb9c89998879U, 0x98aaabaa9989a987U,
  0xb9bbbbbab98aa999U, 0xa9abbbbbbbaa9879U, 0xc8a9bbaa99799697U, 0xb9a9bcccab9a8997U,
  0xa9aaca9aaba99868U, 0x6997997988998966U, 0x7866887767889a77U, 0x6968465454768956U,
  0x8876788686b87b57U, 0x7876776666b88858U, 0x987a999a8a877749U, 0xb97aa98934658aaaU,
  0x7767786887678878U, 0x8887877766667688U, 0x6668667667768778U, 0x7666686778688776U,
  0x7777876877768877U, 0x8668888766688776U, 0x7788678877786877U, 0x8867787667778786U,
  0x7677888668778777U, 0x8868776768686777U, 0x8667877866687886U, 0x7787676788777866U,
  0x8766866767868677U, 0x8768778787766666U, 0x7888867868877888U, 0x8776887867788778U,
  0x8668677878676877U, 0x7778867866786867U, 0x8886876876677668U, 0x6667866777878677U,
  0x7888776667678876U, 0x7878687677676886U, 0x6768768768787777U, 0x7686787888767686U,
  0x7768777776766667U, 0x7688877668778788U, 0x6876877788776766U, 0x7867768687787766U,
  0x6677867868767678U, 0x8777867876878888U, 0x7887876777788666U, 0x6767766876778688U,
  0x8877688677768877U, 0x8686767777786777U, 0x7776766776786788U, 0x7778666686766767U,
  0x6668776678677668U, 0x8767778678878666U, 0x7888778687668887U, 0x8677678788768877U,
  0x8886768866677767U, 0x6688867878677867U, 0x8777776668766866U, 0x8786766788668768U,
  0x8668878768767868U, 0x6687677767876667U, 0x7666786676877667U, 0x6668876668878686U,
  0x6777867667868677U, 0x6866877676776767U, 0x6686686777867667U, 0x6777788877866876U,
  0x6787877766788668U, 0x8766887768876868U, 0x7777777876677876U, 0x7786766666686677U,
  0x6876878776786766U, 0x7767887678888666U, 0x8677777767686788U, 0x7777787786867777U,
  0x7687676788867787U, 0x8766887667777878U, 0x7766676888877768U, 0x6777887868777666U,
  0x7787776866768686U, 0x8688676877786866U, 0x6887787767668767U, 0x8786877788786786U,
  0x7668766886667778U, 0x6676878887868877U, 0x7786676676777787U, 0x6678786676866767U,
  0x7876678788787687U, 0x8777777887667678U, 0x6686766667677676U, 0x8666686766767666U,
  0x8788878677788878U, 0x6866766788778686U, 0x7668866876888777U, 0x6667887767768678U,
  0x8866687677776868U, 0x8866688886866888U, 0x6866666687676868U, 0x7867788677777778U,
  0x8676667667776877U, 0x7777688777666786U, 0x7887788778786878U, 0x8876868677767678U,
  0x7778768688667786U, 0x6666688887778768U, 0x6768687878686778U, 0x6786877878687766U,
  0x7878768678677676U, 0x7668766878877787U, 0x7877788776688767U, 0x8776866688666778U,
  0x6678777687766688U, 0x6688876867886786U, 0x7787866668677778U, 0x7777868778787877U,
  0x6887866878766877U, 0x7887788877677778U, 0x6667878787787686U, 0x7777786878787777U,
  0x6786787768887666U, 0x7667778767678787U, 0x8868768878768686U, 0x8667667776887676U,
  0x7788776876677867U, 0x8767688677778766U, 0x7778768666667767U, 0x6678686877788867U,
  0x7668687678777777U, 0x7767768888668878U, 0x6786777776666786U, 0x8768786676686867U,
  0x7668677768868787U, 0x7778778677677787U, 0x7876676777677868U, 0x7676887768878667U,
  0x7767886866786786U, 0x8776876688886667U, 0x6888776788776866U, 0x6778878777677686U,
  0x7788877667787686U, 0x7776887788668676U, 0x8778666676776677U, 0x8868676778676886U,
  0x7886788767677767U, 0x6686667768887686U, 0x7688686677786767U, 0x8686687868777676U,
  0x6878666888687877U, 0x7777878888877878U, 0x7778687768868686U, 0x8666788668876876U,
  0x7876778777866866U, 0x7778687866786778U, 0x7687786688766678U, 0x7777666677767676U,
  0x6867867876776776U, 0x6777678787777876U, 0x6786777888876667U, 0x6778867866668777U,
  0x6687866766678687U, 0x7678686666687877U, 0x7667777777887668U, 0x6688786788878866U,
  0x6666786688888877U, 0x7787676886677677U, 0x6776868868878888U, 0x8776877887887688U,
  0x7686688688876778U, 0x8766786678876876U, 0x8866768687878888U, 0x8687868777667666U,
  0x6768778687767667U, 0x8766887767887886U, 0x7677768786776866U, 0x7677777877676787U,
  0x7777866777867786U, 0x8776887868676676U, 0x6677877668776877U, 0x7666776676867677U,
  0x8687776677677866U, 0x7688677776867768U, 0x6787876678768766U, 0x8666777788666676U,
  0x7686777687667867U, 0x6876687766666678U, 0x7866676766786667U, 0x7666767676777787U,
  0x6766866877876667U, 0x7687886868686666U, 0x7686667676776778U, 0x6778677667867787U,
  0x7786686886776876U, 0x7767667877777776U, 0x7776688677677787U, 0x7766677786666666U,
  0x8867678877667766U, 0x7686676777867877U, 0x6686766667766878U, 0x6666776777667866U,
  0x6667676788777768U, 0x6677776776776667U, 0x8666778778867776U, 0x7876787867788867U,
  0x7688767666867778U, 0x6668867768768678U, 0x8668886867767686U, 0x8686888867867688U,
  0x7866787867666877U, 0x6767678666767876U, 0x7666676686777786U, 0x8667777677667677U,
  0x8666667886767768U, 0x7786787866767687U, 0x7766776776678677U, 0x7666767768866866U,
  0x6787887667866666U, 0x7677766668677768U, 0x6676776866677767U, 0x7776686866666677U,
  0x7788666667776666U, 0x8777767777676666U, 0x8886667667868776U, 0x8677867768687876U,
  0x6876766677778686U, 0x6776876777777687U, 0x8767666766778768U, 0x7666776786677888U,
  0x7786786687677867U, 0x6667668766676777U, 0x6878776678767678U, 0x6867876886876666U,
  0x7776667876777787U, 0x7687887668768676U, 0x6666786787786767U, 0x6866778676766876U,
  0x6766687776666766U, 0x8668676766786767U, 0x6667666788877676U, 0x6868878876766668U,
  0x6768776677766667U, 0x6767767777867678U, 0x6876677767766766U, 0x7676776767777766U,
  0x7766687677666767U, 0x6678777776876677U, 0x7676776776676667U, 0x6686777778676677U,
  0x6768867778867666U, 0x6768667876677776U, 0x8776786667667778U, 0x8668866676778666U,
  0x8866777676677777U, 0x7678768667667788U, 0x6676676676686777U, 0x6667676677766786U,
  0x8866866666687666U, 0x6886877666687887U, 0x7676776766778766U, 0x7688667787687777U,
  0x8767668866887778U, 0x7667678776667877U, 0x8667688778687776U, 0x6886778766686678U,
  0x7677768667766667U, 0x7766667886666688U, 0x7667766686767676U, 0x6676886666767766U,
  0x7887677678677688U, 0x7867667787677887U, 0x6767776786667688U, 0x8877866866677677U,
  0x6788776678888776U, 0x7677778686768767U, 0x6778778867866868U, 0x7687678778866676U,
  0x7668787777687877U, 0x7686767687687668U, 0x7777777786768777U, 0x7776677788776776U,
  0x6886677786787787U, 0x6778776876878866U, 0x6686888778767887U, 0x7787777766676667U,
  0x6778768787877777U, 0x7776776867878778U, 0x8876876778667888U, 0x7687767877888777U,
  0x3454ba8978a88689U, 0x5a2455885565438aU, 0x8678668756745487U, 0x4489bca977983664U,
  0xb5677a59a59b6a57U, 0xa496a64686996598U, 0x97c7982574867487U, 0x5769898953659546U,
  0x4b5a857984469643U, 0x9acb9a8576885636U, 0xa4cba79757897868U, 0x74dba986769a8839U,
  0xc6edc96789a95849U, 0xb5dda99a77996959U, 0xb4cc68578678999bU, 0x47566635416d96beU,
  0x9878668867655566U, 0x8979657757554374U, 0x6677878876443354U, 0x5677655555762332U,
  0x7898685434764455U, 0xabba8a4833534575U, 0xabba7a6656576476U, 0xbbab899689566654U,
  0xacbb898897679845U, 0xa9bb9a5876878988U, 0x98ba99676688a988U, 0x9abbbb8a98998aa9U,
  0x99cbccabaa9b5899U, 0x65b9baaba98b8989U, 0x6797884644994698U, 0x8898885533983564U,
  0x3385bbcbcccccc9bU, 0x65a8b9bbbbbbcbabU, 0x99999999998aa9caU, 0x9aa999a9a999a9ccU,
  0x899989a99aa9a9cbU, 0x889999999a99a8bbU, 0x88979899999a99baU, 0x98988898999999caU,
  0x77889779889999bbU, 0x988888989999987aU, 0x9978999999999849U, 0x9978999889999966U,
  0x997888898999a995U, 0x9a89889899999a88U, 0xaa8a899989aaaa48U, 0x86a9cbdddd8cecdeU,
  0x9868657776564466U, 0x8989657766665455U, 0x7697786776464455U, 0x5687668776986644U,
  0x7998798865877756U, 0xaa99897866657855U, 0xab9a8a8898987767U, 0xaaaa88989a879875U,
  0xbbba88789988a965U, 0x999a79688698aa88U, 0x98a899788698a998U, 0x99aa9a8a88a99a89U,
  0x88baab9b98898999U, 0x67989a9997889998U, 0x6887796844985898U, 0x9888895744983765U,
  0x8988688878878867U, 0xa8ba89998a9aaa79U, 0x78968a9a88998979U, 0x679687978798778aU,
  0x5798897966897789U, 0x8a889a8846677689U, 0x86a899996a886889U, 0xa9b899a99a788969U,
  0xaabaabbaab998988U, 0x98a99a9999999a88U, 0x9aa9ab89989a9998U, 0x8bababbbbaaaaa86U,
  0x9999ababaa8a8888U, 0x67979a99a99a9989U, 0x9887988867a4ba94U, 0x9989888868b1b960U,
  0x7868677878665577U, 0x8957767666654355U, 0x8678966867444364U, 0x5568666765672433U,
  0x7898776554862466U, 0xaba9694834433566U, 0xabbb7a7856555657U, 0xabaa688788477856U,
  0xabbb8a9989579855U, 0xaabb997987998a88U, 0x87aa9a5776778a89U, 0x9abaab7a98999b99U,
  0x99cbbcaba9997999U, 0x76a9ab9aa9898899U, 0x85a9a97966995898U, 0x8987775644983676U,
  0x69679966769799b9U, 0x4976b88798a8aa99U, 0x98a99a8a87884597U, 0x89777868865734a7U,
  0x68858879596445a6U, 0x79988679586658a6U, 0x5989999baa8a9998U, 0x9aaabbbabb9a9aa8U,
  0x8abbcbbccbba9ba7U, 0xb8abaaa9baab9a98U, 0xb9bbaa99bbbc8b88U, 0xa9caa999bcbc694aU,
  0xa9ab9999ab7a7849U, 0xb8aa998999988869U, 0x98a97856558c66b9U, 0x88aa99babc5dbbceU,
  0x7866866676867776U, 0x6766777887776677U, 0x8678766767878778U, 0x7666667776878678U,
  0x7868687668788766U, 0x6667787788887768U, 0x6687888887767687U, 0x7667887778867667U,
  0x7878867666877768U, 0x8776777887778866U, 0x6788788888866777U, 0x7866766676767677U,
  0x8668776687778767U, 0x7788888676787767U, 0x7866767768786778U, 0x8688767677678776U,
  0x6668786787678768U, 0x8686888688768766U, 0x7878768866877767U, 0x6878877766677778U,
  0x7666767678877786U, 0x8666878777777876U, 0x7668888876676687U, 0x6788666868786677U,
  0x6876677668777686U, 0x7788678676777766U, 0x7868777676877776U, 0x6868768766887676U,
  0x7866868778778788U, 0x7886788776787766U, 0x7787766878768886U, 0x7787877668868766U,
  0x6767776876688676U, 0x8676877667666676U, 0x6876777686777677U, 0x6787687777878686U,
  0x8778677688667776U, 0x6776868888667676U, 0x6676666686676778U, 0x6786668666688677U,
  0x7676867687886678U, 0x7786876777788678U, 0x7668888868666678U, 0x6787886787777786U,
  0x7887876677777677U, 0x7678878777777886U, 0x6666677888686676U, 0x6686776887688687U,
  0x7788688778778677U, 0x6888778688887778U, 0x6667687686877678U, 0x8776876667768766U,
  0x7767676667776677U, 0x6667667767886678U, 0x7786688878888768U, 0x6767767766887777U,
  0x8886777777866677U, 0x6868787776876787U, 0x7687686767676776U, 0x7866786667786667U,
  0x6666767777777678U, 0x7677766866668876U, 0x8866667866768687U, 0x8777878676776687U,
  0x8777866767878868U, 0x6866866768778768U, 0x6877676667666888U, 0x8776676668868767U,
  0x6687778668676676U, 0x6776776667876686U, 0x6687677666687676U, 0x7678666776778767U,
  0x7776666766676668U, 0x7677767687866688U, 0x7777888687778668U, 0x8766877876877767U,
  0x8686886766678676U, 0x6667668877777867U, 0x6776668787777767U, 0x7777788878766686U,
  0x6868867668766786U, 0x6786777687687776U, 0x6667776876867877U, 0x6866666676868877U,
  0x8787878876667677U, 0x7677767688886876U, 0x6688778876787776U, 0x6677677868876786U,
  0x8667768867778668U, 0x7788777768776867U, 0x8868767677887866U, 0x8766767786776678U,
  0x6766677766686767U, 0x6766667767667667U, 0x8677676676677878U, 0x6787767866676768U,
  0x6776888887686687U, 0x6887878677877768U, 0x7668767767868686U, 0x6678778768678668U,
  0x6667767878667767U, 0x6687666776767868U, 0x6667878886666688U, 0x7676688888688767U,
  0x7767687668778687U, 0x8687668686678887U, 0x7667676686688667U, 0x8868866777787667U,
  0x8886788866788766U, 0x8786676786786776U, 0x8667686676778778U, 0x8668668887886777U,
  0x6786777778667668U, 0x6877866787688768U, 0x6668676666767668U, 0x8787686877867668U,
  0x8776878787667876U, 0x6777786677668677U, 0x6787667876768766U, 0x6776777766867768U,
  0x7666777877788876U, 0x7766667767767778U, 0x7877687686668867U, 0x7767776776888876U,
  0x6686686787868787U, 0x8788778877766667U, 0x7768767866678766U, 0x8767667877767777U,
  0x6888667787666777U, 0x6788686667676876U, 0x8876687787877767U, 0x8877866668687668U,
  0x7786767767786778U, 0x6676776888766777U, 0x8768677778787688U, 0x7676886877766886U,
  0x8666787777877877U, 0x6667887688886777U, 0x8678676876776878U, 0x8777668876877886U,
  0x6677887676688867U, 0x8776678678868878U, 0x6677676786876688U, 0x7668666777767866U,
  0x7767787877677888U, 0x8677666786768886U, 0x7786677668868768U, 0x6766668887767688U,
  0x7878678678767787U, 0x6687677686878776U, 0x7668786766777887U, 0x8667678768866788U,
  0x7778877766766687U, 0x7766877886787866U, 0x7868877868876876U, 0x6867677887787678U,
  0x6878788686686786U, 0x8776677886777786U, 0x6677676667878787U, 0x8778876888686886U,
  0x6676687666667877U, 0x6677686876686768U, 0x7777667787687776U, 0x8887767676668677U,
  0x7777878876678767U, 0x8878776666777777U, 0x7878786666886786U, 0x6866876876687767U,
  0x8877678666787767U, 0x8686776886776867U, 0x6866767668676866U, 0x8776686676776678U,
  0x8668777766678676U, 0x6878768767678686U, 0x6666676677866776U, 0x7777768888778686U,
  0x6677868667767787U, 0x7877677677677877U, 0x6666788786686767U, 0x6777878686668667U,
  0x8667686787767667U, 0x6766667678677886U, 0x6666778876766778U, 0x7888677868787766U,
  0x8778766877766776U, 0x6786787877676876U, 0x6687786776666877U, 0x7877866667676687U,
  0x7766787878666768U, 0x6786687686886676U, 0x7776668666676668U, 0x7777778867877777U,
  0x7866676666666686U, 0x6766767767676778U, 0x8766786878676667U, 0x7688678676676688U,
  0x6678668867767878U, 0x8888787786768878U, 0x8668788768667677U, 0x6867776676767867U,
  0x6878886677778766U, 0x8767686776677666U, 0x6776778788676887U, 0x8666776776768878U,
  0x8666778667666668U, 0x6768686668776777U, 0x6766677776666677U, 0x7676676777877676U,
  0x8677688887767866U, 0x7768876876767877U, 0x6678666776777677U, 0x8686667687666788U,
  0x6687877768676677U, 0x7677776676888666U, 0x6876777876667766U, 0x6866776877787877U,
  0x6888787767887686U, 0x7667866778776777U, 0x6867676786777667U, 0x8766787677766777U,
  0x6687686787776867U, 0x7666668668767767U, 0x7877777666777678U, 0x7676688887877868U,
  0x6667767778766867U, 0x7668767667768878U, 0x8666877668868776U, 0x7876887878876866U,
  0x6677667667778677U, 0x6877686787688676U, 0x7878686667777686U, 0x7887767677686776U,
  0x6766876676867787U, 0x7787766687878786U, 0x6867767876676868U, 0x6676677667868866U,
  0x6668777666668768U, 0x6677667677767686U, 0x7686777788778668U, 0x8668866678867666U,
  0x6776687767867877U, 0x8666878876788686U, 0x6877786668866676U, 0x7676668777886668U,
  0x6786688768688767U, 0x7877786767778866U, 0x6668676787778776U, 0x6777666878686777U,
  0x8766887788766866U, 0x7677777878786887U, 0x8767766777887686U, 0x6867877766786776U,
  0x6666866767776778U, 0x8677866677668677U, 0x7666768767776777U, 0x7777677687778668U,
  0x6876767786777686U, 0x7866886767878667U, 0x6886876677776787U, 0x6677776776886788U,
  0x7767766778667878U, 0x8768667866686886U, 0x7876677868677666U, 0x6766766786878768U,
  0x6787766667777776U, 0x8877686877687767U, 0x8678688878767876U, 0x7676778676787876U,
  0x6667778877677667U, 0x8876786668777666U, 0x6667876878767776U, 0x7778666688777787U,
  0x6666876767877886U, 0x8776867776776767U, 0x8667778686787786U, 0x7677686687868867U,
  0x6687866876668888U, 0x8767668776887788U, 0x7777787787868768U, 0x7667668778866868U,
  0x7777876676877666U, 0x6887688887677867U, 0x7876867666667886U, 0x8866787866877767U,
  0x7778778766778677U, 0x7768767666668776U, 0x8877778667778878U, 0x7888868677766668U,
  0x8888767768668666U, 0x8666778767768686U, 0x6766787667866677U, 0x8667667676676878U,
  0x7676766867666678U, 0x6687667767768666U, 0x6666776777666688U, 0x8776678767667778U,
  0x6877786678677766U, 0x6766776766867776U, 0x7868767686678687U, 0x6766666867677768U,
  0x6676667688666668U, 0x7786767777767667U, 0x8676768676678667U, 0x7877788667666666U,
  0x7766668767668867U, 0x6786686666786667U, 0x6876788667786666U, 0x6766668677867866U,
  0x6666777878767766U, 0x7878766666788876U, 0x7867668776877666U, 0x6766888666766666U,
  0x7867676777866877U, 0x7666688877768786U, 0x8786878766786788U, 0x7677676686766887U,
  0x8777676667768678U, 0x7787666767678767U, 0x7776666668777767U, 0x7777868886866668U,
  0x7877887687666678U, 0x8787676878866666U, 0x7667878666868667U, 0x6867666686777668U,
  0x8776876777766766U, 0x6687677677786767U, 0x7676777677777668U, 0x8787766788677667U,
  0x6676767766677777U, 0x7666666878677666U, 0x6767768786778676U, 0x7668778767766666U,
  0x6788766677776768U, 0x7766866687666767U, 0x7777766686787888U, 0x7667686867866686U,
  0x6776766776767678U, 0x6688777666676667U, 0x8876766677767878U, 0x8667686767688788U,
  0x6667767666666676U, 0x8677766767876677U, 0x7687866767776866U, 0x6867686786686788U,
  0x8688777767766678U, 0x8777686686666676U, 0x7876787778676677U, 0x6777668677668877U,
  0x8666686666877678U, 0x7676666677888777U, 0x6766777867677677U, 0x6668778886776677U,
  0x8668766778787678U, 0x8667767768686766U, 0x6866776868666677U, 0x7766867667867777U,
  0x6788686678866887U, 0x6677677677777667U, 0x6766887877886668U, 0x6878778766776686U,
  0x7676668678777878U, 0x7688866876668787U, 0x6776677676777866U, 0x7776767676676668U,
  0x6668666666876666U, 0x7666786686668888U, 0x8667768678766776U, 0x6686766676677866U,
  0x7668677777686787U, 0x6676666787686667U, 0x7776668778777776U, 0x6676778676877788U,
  0x7666668766887677U, 0x6677677687677886U, 0x6668668866766686U, 0x6867668786767766U,
  0x6766868676776677U, 0x8677787666867876U, 0x7767676866776677U, 0x6787786768786666U,
  0x7777777777777778U, 0x8766787686778878U, 0x7677786877777687U, 0x7678666867867776U,
  0x6878677667788877U, 0x8778666778866687U, 0x8766866778686768U, 0x6867777766776888U,
  0x7686666676777776U, 0x7677776667868667U, 0x8676767867887778U, 0x8776686776677778U,
  0x6878686668887787U, 0x6887767668668687U, 0x7677768878787688U, 0x8777778676687688U,
  0x7678876677678667U, 0x7876866877767766U, 0x6768667777777767U, 0x7676676668677666U,
  0x9a8a999888585435U, 0x7778a76688697567U, 0x6755975468788695U, 0x4ac8db96ca669766U,
  0x4a44b9aa8a957899U, 0xa98a54a88b976abaU, 0xc95b21528a8779baU, 0xaa162131856469a9U,
  0xd7281231335588baU, 0xc7494444356595b9U, 0xd75954589688a5b9U, 0xc6897656ab9995c8U,
  0x8776579898cc9bc7U, 0x65877a97ab3c95b7U, 0x55965598996a7585U, 0x77566598bcabbf95U,
  0x8898676876875754U, 0x8857656587666654U, 0x7955444464447466U, 0x6a55656575458677U,
  0x6865358588688999U, 0x9a8a4485b979a99aU, 0xba6a3464c9aabb9aU, 0xba7a4554b9dbcdaaU,
  0x999b6767a8cbde9aU, 0xb9ab9999bbeded9aU, 0xbabcbabbcbeeee99U, 0xaaaaaaabbcddde88U,
  0x869aa999bb7bb568U, 0x55979989aa4a6578U, 0x788665669699b868U, 0x8868665587aaba89U,
  0x8766755788989989U, 0x999868967988878aU, 0x8898999968677698U, 0x989a998967676656U,
  0x8988897776666675U, 0x7887996555556765U, 0x7887995745565665U, 0x6778876845556555U,
  0x8966666554555666U, 0x6866555554556586U, 0x5664454544545575U, 0x6766565555445579U,
  0x886667776654665bU, 0x7877777876866959U, 0x8866877878686546U, 0xaadbeeddac8a55ccU,
  0x9979778878875665U, 0x7868667687765666U, 0x7956565566576565U, 0x6945666677586787U,
  0x5966458589797898U, 0x899a3685a97a9999U, 0x9a893453989a9998U, 0x998a44549799bb9aU,
  0x9799766799a9bb99U, 0xa8ab8798aabbcb99U, 0xa9aca8a9a9cbbc99U, 0x98aa9999aacbcc86U,
  0x869899989a8a6676U, 0x5576988999598568U, 0x66775665989ab778U, 0x886867567799b978U,
  0x8787668668686668U, 0x6755565886568669U, 0x7885888a86588756U, 0x6643659979989975U,
  0x8866677598a88974U, 0x8a964755a9a99a64U, 0x99983533858a9996U, 0x7888232375aa9a98U,
  0x5877454585a98a88U, 0x57886798a7bb9c79U, 0x59888898a9bbab79U, 0x36666687a8a9ab79U,
  0x3355555696a8648aU, 0x3453545685865567U, 0x666555666688576bU, 0x877667664698969dU,
  0x9989888786775765U, 0x8757557766766555U, 0x6845545555357555U, 0x6a55656565458588U,
  0x6955467589789999U, 0x88993574b97a9aa9U, 0x9a7a2253c99abb89U, 0xb97a4354a9ccdd99U,
  0xa97b786699dbcc99U, 0xa9ab9878aadcdd9aU, 0xb9bdaaaacbedee99U, 0xa99aaababbdddd68U,
  0x87989999ab9ca988U, 0x649898999a5a9488U, 0x576765548659b589U, 0x7778565586aaba79U,
  0x5644547656566676U, 0x567767859a857787U, 0x3845546597a99b88U, 0x3645569899a9ab67U,
  0x58483399a7aa9b68U, 0x8839427499a8ac58U, 0x6724433275a9ba49U, 0x9825435366babb58U,
  0x9756547799cbcd67U, 0xa86896abbbdccc68U, 0x98586468aabaca66U, 0x8765558699a99ab6U,
  0x56343534454574c6U, 0x66654544554788b6U, 0x76585667a8999a76U, 0xa79b9aabbb693a76U,
  0x8867667787877686U, 0x7868877886887667U, 0x8768878767878867U, 0x8788686768878786U,
  0x7887867877786776U, 0x7666886666877666U, 0x6768876767687777U, 0x6868787866777867U,
  0x8788767767677666U, 0x7667667876687878U, 0x8767668888786688U, 0x6867778676887667U,
  0x8677877667678686U, 0x7686676777886677U, 0x7866677677687678U, 0x8687786887786688U,
  0x35799868a9a84588U, 0x2a536998d7585675U, 0x6b855668974a6698U, 0x9976454577874986U,
  0x76b6583464794677U, 0x3544872373785a56U, 0x55a7cb6655775668U, 0x44cadc6b7c897468U,
  0x4668d9debca97a67U, 0x6869b8bbac9c5ba7U, 0x549a98ba9aba4969U, 0x37aa6a8944868658U,
  0x467a988765438467U, 0x3589966687979656U, 0x9bbbba8996b39939U, 0x9aa88a65a2a84297U,
  0x8977767775786655U, 0x8966688868896676U, 0x7766455555888976U, 0x4444452233853876U,
  0x2422332432635866U, 0x3342746734425665U, 0x6486a99b68444588U, 0x7698aaab9a664598U,
  0x9898aaba9a773598U, 0x86a8a9a98a783587U, 0x88a9aaa999793378U, 0x89999aaa88674387U,
  0x6798987988885567U, 0x8899887766858876U, 0xaaaa9a8968756988U, 0x9a998988687598a9U,
  0x555586a979785775U, 0x3364759877665644U, 0x5666668777686646U, 0x5776867876876646U,
  0x8877999878887857U, 0x8777878767766658U, 0x6867565586677857U, 0x7878655665676636U,
  0x6755556566867835U, 0x6655657587998815U, 0x8758677676889826U, 0x8676666777899844U,
  0x6666667678878824U, 0x4555665566576544U, 0x4464565676566643U, 0x2112114334343301U,
  0x7866676857686656U, 0x8866777876675666U, 0x7876666565885677U, 0x6554453454656675U,
  0x4433543543756755U, 0x5444845645655766U, 0x5576a88967546576U, 0x7688aa9a79554597U,
  0x78889aaa89674598U, 0x8898a99989764586U, 0x7899aa9a99673486U, 0x8898998989684578U,
  0x7798977868875786U, 0x8888788868966968U, 0x9aa99a8968667768U, 0x999999896767999aU,
  0x6868559658797677U, 0x9586568668786866U, 0x7567565455657765U, 0x7565564453567675U,
  0x6555454643558765U, 0x5556656866757666U, 0x5444768977658675U, 0x4443558688568865U,
  0x4543446598467684U, 0x4433455566666584U, 0x5543556676656564U, 0x5644555556653684U,
  0x6854556756757963U, 0x9999989867588964U, 0x86899a8998597884U, 0x98888988974868b8U,
  0x6776866766675655U, 0x8867787756797666U, 0x8866565556888766U, 0x5544452343963777U,
  0x4333332342744866U, 0x3332544644544657U, 0x5565b99a58543486U, 0x5696aaaa88553598U,
  0x9898baba89573699U, 0x77a8a99a79673498U, 0x77a99aaa8a593398U, 0x98a9a9aa79684388U,
  0x8988989888776477U, 0x9988988876867887U, 0xbaaa998867847877U, 0x9989989888669999U,
  0x4896886695766787U, 0x37645474b5657956U, 0x8855456457466358U, 0x6665453453666569U,
  0x5544663445855977U, 0x6684876845855698U, 0x5566673544855688U, 0x6655333432544359U,
  0x5745333343333379U, 0x4636444343443398U, 0x5677554433234378U, 0x4678565544449379U,
  0x5698675676958867U, 0x5998998898979757U, 0x8885987787758886U, 0x1742233263956255U,
  0x8887877877887767U, 0x6786777776888687U, 0x7877878766688686U, 0x6678878768886668U,
  0x7776776887678887U, 0x7788687888878887U, 0x8878676686677688U, 0x8677778878786868U,
  0x7688687676678777U, 0x8666677687868778U, 0x7686677778868788U, 0x6768878777686688U,
  0x7777866678867777U, 0x6788876686877788U, 0x6767887867878777U, 0x7667876677766867U,
  0x5879c979b8263256U, 0x27436886a9186556U, 0x6921636598366597U, 0x7b22222285535977U,
  0x8a72542264774889U, 0x69658a6796885989U, 0x3455bb86a8995b89U, 0x36969a88ccac6a59U,
  0x34868a9689bc8a8aU, 0x2521568789896bb9U, 0x17333555959949aaU, 0x37223554857869c7U,
  0x25224363644777a7U, 0x4844445253638586U, 0x6a67565553545558U, 0xaab99a89d9943775U,
  0x9988867988996667U, 0x9978658788667665U, 0x9967544454235286U, 0x9a58453443242289U,
  0x7755664555232299U, 0x4455a68a874734a9U, 0x43639969859a67baU, 0x3353554554a989bbU,
  0x22223334539698bcU, 0x24334444659798aaU, 0x456556656589999aU, 0x559788887698aa88U,
  0x998876785866a679U, 0xbacc9aa869568598U, 0xbaaaba99aaa8a988U, 0x999a9889a89aababU,
  0x5443555443544534U, 0x4265669778675634U, 0x5465868777898724U, 0x6786878777678836U,
  0x6788876876666836U, 0x6887668776887846U, 0x9687887788888836U, 0x7799989988888823U,
  0x889989a99a888725U, 0x879889a999787814U, 0x7676886668678714U, 0x5566557667677536U,
  0x5645655556665526U, 0x5455656576867834U, 0x5445545576675542U, 0x4334223324542301U,
  0x8988778988886766U, 0x8988668787687687U, 0x9979664555565487U, 0x9967455543443597U,
  0x6858555855454798U, 0x5556976a68564897U, 0x54549758758978aaU, 0x45446645648687aaU,
  0x44334444446666bbU, 0x44435345668787a9U, 0x666566677768799aU, 0x6586866766888888U,
  0x9878668667677588U, 0xa9ba999979677677U, 0xa9aa9a9999999878U, 0x99999988a798ba99U,
  0x7977469668887876U, 0x7875358577667675U, 0x6587568864567575U, 0x8677577746568373U,
  0x8777668956668583U, 0x5565748a68788585U, 0x7644666854886694U, 0x5444656744866594U,
  0x3333444433646484U, 0x5443454534535495U, 0x5264776735446485U, 0x7486688757445385U,
  0x8696676988655586U, 0x99a9aa888a666565U, 0x9899999879598778U, 0x76668889574a79bcU,
  0x9988788888796667U, 0x8968667788776677U, 0xa968554555457488U, 0x8a58453452233399U,
  0x8745455555342399U, 0x5457a87966555599U, 0x4554a969858987b9U, 0x44546745859968aaU,
  0x32333323539788bbU, 0x24233433557897aaU, 0x44555455658999a9U, 0x5588658866999998U,
  0x8889777867689788U, 0xabaa9a9969578687U, 0xcbbbacaaa9689677U, 0x89999889a898aba9U,
  0x6846648576468778U, 0x483564948833776aU, 0x5835447599567488U, 0x7746657776865588U,
  0x7746775567545569U, 0x6667685444635569U, 0x6555554553764548U, 0x4555343344553449U,
  0x5524333323243269U, 0x4656545544444379U, 0x4659977666344388U, 0x765789aa69348597U,
  0x6865888976557486U, 0x7999768788489877U, 0x58566678a8978997U, 0x3754435596945244U,
  0x7888777777666888U, 0x8868786667788878U, 0x6786787666886667U, 0x8777786676877767U,
  0x8766887878766787U, 0x6778788886788766U, 0x7667887677688877U, 0x8668867676866777U,
  0x8886867767768778U, 0x7687886667688776U, 0x7878778788878867U, 0x8778767867768677U,
  0x8887777687866877U, 0x6688666687786777U, 0x7687767687777786U, 0x6768788878676766U,
  0xbc0d0a753c3db39bU, 0x3b87fb2f3bec5200U, 0x3c319fcabb94e80eU, 0xbc66f9f03c888cdcU,
  0x3d056e493ac62faaU, 0xbc530fbdbc120e96U, 0xb9844c23bcb69a87U, 0x3824131a3c1cd49dU,
  0x3e5b7f673e12461cU, 0x3dffba4f3e6df732U, 0x3e81ba9c3daf50d3U, 0x3e20fcaebde28be0U,
  0x3d140b26bd0a6b5bU, 0x3e43536c3d9fa6d4U, 0xbe503fecbd618269U, 0xbe538ff7bd82a9e6U,
  0xbdea1e363e612854U, 0xbdc2f6d4be36b712U, 0xbe8d5451be3cd176U, 0xbd5146583e849640U,
  0xbd83675dbe63fa9eU, 0xbe2f2a7abd538d78U, 0xbeb2840cbe4e573aU, 0xbe81aeb6be5d4310U,
  0x3e5c3ffc3dd24965U, 0xbb2ce0d0be53a4b4U, 0xbdac8d90be0b8316U, 0xbe4a1572be0cdc2dU,
  0xbcc521993ca3c19bU, 0xbd9c61edbe6c62c8U, 0x3e27bcfd3ceb0fd3U, 0xbe34f1fa3e9083f2U,
  0x3e4a47ee3dde1b6cU, 0xbe400cac3dbf7bb4U, 0xbe59d80cbe2f1d5bU, 0xbc160b80be20fa5dU,
  0xbe9f0df6be626799U, 0xbd4ee2abbde15983U, 0x3d539564be218c74U, 0x3e8a0a0abd1d2564U,
  0xbdb5b2573da59cf4U, 0x3e1e4508bd4e7160U, 0xbd933d1a3cee6322U, 0x3d197d50be2c1e39U,
  0x3e311dcebe5e17f8U, 0xbe1b2a153d7df275U, 0xbc57dc8abdb5b17fU, 0x3cd386b9bd7ecf26U,
  0x3ddc3c373d105c0fU, 0x3be01e92bce94dd0U, 0xbe885258bd367dddU, 0xbe5483c63df22b23U,
  0x3c4477663e53f219U, 0x3de00d24bddb85e7U, 0xbdff473bbd05feffU, 0x3bf30e92be395712U,
  0xbdccb6833e01ba3cU, 0x3dccea4a3dc2d678U, 0xbee832c5be49fdf6U, 0x3e3353a2be0c180bU,
  0x3ea699b33e771e72U, 0x3e2fa78cbe149f81U, 0x3dc6c104bd0ecb6fU, 0xbe0e051cbe54b8b3U,
  0xbe1b69463e3995d8U, 0xbe3328313d93fd3cU, 0x3d18bc9cbe0cfa47U, 0xbe6ad27abda22ecbU,
  0x3d4372513e3ec8a7U, 0x3e51f4b0bd290d11U, 0x3de703afbd4166f9U, 0xbc987277bec257daU,
  0x3e19fce93e539fdcU, 0x3e54f4523d17ace8U, 0xbd5563a63e26eea4U, 0xbe250ed8bc3e7c58U,
  0xbdb5e11fbe08b398U, 0x3e71f44c3de414cbU, 0xbec45616bdc3f078U, 0x3e0fd36bbd23779fU,
  0xbe3b06c9bb8846b2U, 0xbdf021e2be7266fcU, 0xbcf138173d7b831eU, 0x3e2e201e3d44bff4U,
  0xbea7326dbe142f55U, 0x3e8210333dae5b61U, 0x3e1202923e4f5e9bU, 0x3d02f210be399b7bU,
  0x3e79cdc73e08369dU, 0xbd833429be5d73a8U, 0xbd9e11e3be05c87eU, 0x3df8ee3d3e2cd01dU,
  0xbe45d4113c582452U,
};


ai_handle g_storm_weights_table[1 + 2] = {
  AI_HANDLE_PTR(AI_MAGIC_MARKER),
  AI_HANDLE_PTR(s_storm_weights_array_u64),
  AI_HANDLE_PTR(AI_MAGIC_MARKER),
};

